0200
0B00
7700
7D00
7D00
6300
7500
0000
7300
6600
7200
0200
6F00
7600
7300
7300
7700
7B00
7700
7A00
7900
0600
7800
7900
7C00
7800
0700
7B00
6B00
0A00
7B00
7100
7F00
0200
7600
0100
6E00
0300
7E00
0800
7600
7C00
7F00
7A00
0100
7300
0800
7800
0300
7B00
7A00
6C00
0200
7000
0600
7700
7500
0100
0300
7600
7900
7F00
0400
0200
7E00
0400
7E00
6E00
7A00
0000
0700
7E00
7E00
0500
0000
7A00
7900
0700
7900
7F00
0800
7300
7700
0200
7D00
7600
7B00
6D00
6800
7400
7900
7600
7C00
0000
7700
7800
0800
7D00
0200
0200
0C00
7A00
1000
0F00
0400
1000
7F00
7C00
0300
0D00
0B00
0900
0100
1200
0000
7400
7C00
7A00
7100
0A00
1400
7F00
7800
0300
7000
7700
7D00
0500
7E00
0300
6C00
7800
7900
0500
7600
7000
0200
7700
0200
7A00
7700
0200
7F00
0500
0B00
0F00
0500
0500
0900
0C00
6700
6D00
7500
6200
6900
0100
5F00
6E00
7400
6200
6400
5C00
6400
7100
6A00
6A00
7300
7300
6700
7100
7600
7400
0000
5B00
6600
5400
5E00
6000
6800
7F00
6600
6400
6400
5F00
7600
6B00
6400
6200
6000
4D00
7300
4D00
5400
6A00
7100
7300
7100
7100
6E00
5C00
