6600
6D00
7B00
7400
6700
7800
6B00
7D00
0D00
0A00
7000
7800
7100
7000
7A00
0D00
7B00
6D00
6800
0C00
1000
7700
7000
0D00
0C00
7100
7A00
7800
7B00
7D00
1100
0800
1100
0300
0F00
0600
7700
6A00
0800
1000
0800
7D00
7000
7A00
0400
7E00
1000
7400
7C00
6A00
0D00
0C00
6A00
7100
7B00
7400
0000
0300
7900
6F00
0B00
7600
7000
7100
7B00
7100
0300
6700
6700
7600
6700
0600
7300
7B00
0C00
6F00
7500
6800
7700
6800
7A00
0C00
7800
0E00
7D00
6A00
6E00
7300
6800
7B00
1100
0700
6700
7900
7900
0C00
7900
6800
1000
7C00
0A00
0200
0400
0200
1200
0D00
6A00
0D00
0100
1500
0C00
0700
1200
6800
0000
1400
0600
6D00
6E00
0100
7F00
7500
7700
1200
7D00
7100
7600
7300
0000
7000
0300
7E00
1600
7000
0200
7400
0700
6A00
0600
0800
7B00
0700
6B00
0E00
7E00
1300
0F00
0500
7700
7100
7600
7300
5D00
6900
6000
6B00
6B00
6200
6E00
6000
5700
5600
7C00
5000
7900
7200
6100
7900
7900
5600
5A00
7100
5D00
6100
7700
6500
5800
6C00
6000
5100
6C00
7400
5600
7600
5D00
7300
6F00
6000
6300
6700
6900
6000
6100
7800
6E00
7200
7800
6900
7700
6100
